0006
0007
fffe
0008
fffe
0001
fffc
0005
0008
fffa
0007
0001
0006
0001
0004
ffff
0007
0001
fffc
0002
fffc
ffff
fffd
0006
fff9
fffc
fffe
fffb
0000
fff7
0008
fff9
0007
0001
fffe
0005
0001
0007
0000
0000
0008
0000
0003
000a
000b
0000
0005
0001
0004
fffb
fff7
fffd
fff9
0007
0002
0003
0002
0000
0007
fffa
0000
fffa
0000
fffa
0000
fffa
0003
fff5
fff5
fff1
fff7
ffef
fff9
ffeb
ffee
fff2
fff5
0000
0001
0007
fffc
fffa
0004
fffd
0005
fffe
0005
fffa
fffb
fffb
fff7
fff1
0001
fffc
fff2
fff8
0000
0006
0008
ffff
0001
0000
ffde
ffd5
ffe6
ffde
ffe7
fff2
fff5
fffa
0008
0001
0002
fff8
fffa
fffe
0000
ffeb
ffee
fff3
0000
0008
0003
0010
fffb
000b
fffd
000b
ffff
000b
fffc
ffe8
ffde
ffea
ffec
ffea
ffe3
ffef
0001
fffe
0003
fff9
0006
fffa
fff9
ffed
fffa
0000
000b
ffff
0023
0014
0000
0025
003e
0024
0027
003e
003e
0010
0000
0007
0001
ffd9
ffdf
ffea
fff7
0006
0002
fffb
fffc
ffff
fffb
fff6
fff8
fffd
fff0
ffe3
000d
fff9
fff6
002a
0023
0002
001f
002f
0042
0021
0017
003c
0037
fff8
ffcb
ffd8
ffeb
fff9
0000
0000
0001
0000
ffeb
fff7
000a
fff8
ffd7
fffe
000c
000d
0003
001e
0018
000d
000e
003f
003c
002b
0009
000f
0026
0027
ffe3
ffd2
ffe7
fffd
fff9
0006
0006
0002
ffe7
ffea
fff1
ffec
fff1
001a
0011
0002
0017
0000
002a
003b
006c
0048
0035
000e
0016
0009
002a
0059
000a
ffd1
ffea
fff8
ffff
fffc
fffe
fff9
fff8
fff0
ffee
ffe5
ffe7
fffd
001b
ffee
0008
003b
0011
fff3
002e
0045
004a
0035
0022
fffc
0019
0060
0028
ffce
fff3
fff7
fffe
fffb
0002
fffc
fff2
fffe
ffe3
ffec
fff3
0006
ffe5
0007
0001
0013
0008
ffd9
fff9
004b
0042
0016
0024
0012
0030
0066
0037
ffd3
ffe7
0002
fffd
0001
0007
0003
ffde
ffea
0008
0005
0002
ffe7
ffed
0003
ffdd
fff5
ffac
ff72
ff7b
fff1
fff1
000b
002a
003c
0041
0054
0042
ffda
fff7
fffa
ffff
0004
fffc
fffd
ffea
fff7
0023
0009
fff4
fff2
000a
0000
0010
fff3
ff79
ff43
ff65
ffdb
fff2
000e
0013
001e
0044
0069
0063
fff8
fff1
0000
0004
0002
0001
fff7
fff3
0006
0044
0040
0019
0015
0023
0013
0013
ffa8
ff64
ff32
ff6e
ffc4
fffb
fff2
ffcc
0007
0035
0061
005e
0009
fffd
fffc
0006
0004
0002
fff0
fff1
0038
0039
0056
0034
0039
0022
0030
0020
ffb7
ff4e
ff4d
ff57
ffd9
ffee
ffdc
0003
0021
0026
0058
0054
000b
fff9
fffa
0000
fffd
fff9
fff8
0013
0050
0014
004c
003e
003d
0044
0014
fff4
ff80
ff2b
ff61
ff87
ffcc
fff5
fff3
0023
0019
002a
0058
0048
fffb
fff8
0006
0007
fffa
ffff
ffed
0008
0056
0039
003d
0047
0047
003d
0017
ffba
ff41
ff4e
ff8d
ffc5
fff9
0003
000a
0033
0021
002d
0037
0017
ffef
fff5
0004
fffc
fffa
fffc
fff8
0012
0042
0039
002e
001b
0043
0066
001f
ffd1
ff63
ff69
ffb0
fff2
001b
0004
0011
001d
000d
0029
0013
ffff
fff0
ffff
0009
0007
0004
fff8
ffe7
fffb
0021
0028
0020
003b
003f
0058
0016
ffc2
ff6a
ff93
ffd3
fff2
0004
fffc
ffff
fff8
0002
0031
0012
fff9
fff8
0000
fffb
ffff
0009
0004
ffee
fff2
0020
002f
003f
0033
0029
004e
0052
0031
ffd7
ffcd
ffdf
ffec
0006
0000
ffef
fffd
0017
0026
fffb
fffb
fff9
0002
0008
0006
000b
0000
ffea
fffd
002e
0026
001c
0027
0027
005c
006b
0065
002f
fffe
0000
fff0
0003
ffe0
ffd6
ffea
0003
0014
fff6
fff1
fffc
fffb
0000
0000
0002
0001
fffe
ffeb
001c
0021
001c
0007
000c
003d
0057
0046
001d
ffff
0008
fffd
ffc9
ffcb
ffc7
ffee
000a
0001
ffed
ffec
0004
0006
0000
0001
fff9
fffd
0000
ffd2
fffd
0010
000d
0027
001f
0023
0030
0028
0065
002c
001b
0006
0005
ffe2
ffe2
ffd7
ffe5
fff4
fff8
fff8
fff6
0008
0005
fff8
fffc
0002
fffa
ffde
ffdd
fffd
0006
001c
0036
0056
005d
0044
0044
0039
0028
fffb
0006
ffc4
ffbf
ffc0
ffde
fff6
fff7
fffe
fff8
ffff
0004
0009
0004
fffa
0006
fff8
fff3
ffe2
ffdd
ffeb
ffef
fff4
0000
0024
0030
0013
fffe
ffde
ffda
ffca
ffcb
ffcb
ffe4
fff3
0000
0006
0007
fffb
0008
0005
fffc
fffc
fff9
0001
fff5
fff6
ffeb
ffd1
ffc8
ffb0
ffb6
ffae
ffad
ffb9
ffc0
ffce
ffc2
ffcf
ffdf
ffe0
fff0
fffb
0005
fffc
0003
0003
fff9
fff8
fffc
0006
fff8
fff8
0003
0001
0000
fff0
ffe8
fff4
fffa
fffb
fff0
ffec
fff7
ffee
ffed
fffd
fff7
fff4
ffff
ffff
0002
fffd
0000
0008
fffb
0000
0004
fffa
0008
fffc
fffe
fffe
fffa
fff7
0004
0002
fff7
fffa
0007
0001
0001
fff9
fffc
fffe
fffe
fff9
0000
fffd
fffe
0001
fffd
0002
0003
fffc
fff7
0004
0002
fffc
0008
fffc
0006
0004
fff9
0005
fff8
fffb
ffff
fffa
0008
ffff
0003
fff8
0005
fffe
fffa
0001
0004
0007
fffb
fffc
0001
0002
0003
0005
fffe
0005
0006
fffe
0006
0003
0007
fffb
fffc
fffe
0000
0008
0000
0003
fffd
0005
0000
fff8
fffb
fffa
0004
fffa
0000
0001
fffb
0002
fff8
fffa
fff8
fffe
fffd
0001
fffe
0000
0000
fffd
fff5
fff9
0015
000e
0029
001c
0007
0006
000a
0000
fff8
0007
fffc
fffc
0007
0007
0002
0000
fff9
0000
0008
0002
0000
fffe
fff9
fffb
ffed
ffe5
ffd1
ffed
fffb
fff4
0011
0013
fff3
ffe4
ffe9
ffe7
fff1
fff1
fff5
fff8
ffff
0003
0002
fffd
fffd
ffff
fffd
0009
000a
000a
fffa
fffa
ffeb
ffdf
ffd6
fff3
0023
001e
0023
0011
fff4
fffa
0017
001a
0019
0004
fffd
ffde
fff4
fff9
0000
0008
fffe
fffe
0006
ffff
000c
000d
ffee
ffc9
ffc5
ffd4
ffca
ffdf
0007
000a
0026
fff3
ffd8
fffb
000e
001a
003f
0030
001b
fffb
ffef
fff7
fffc
0007
0004
0003
fff9
fffc
fff6
fff8
ffd8
ffb9
ffb6
ffcc
ffe2
ffce
ffd8
ffd7
ffc4
ffc7
ffb9
ffed
ffeb
0014
0015
001d
000e
fff4
fff2
0004
0008
0002
fffd
0002
0006
fff6
ffe8
ffcd
ffd2
ffad
ffb5
ffc8
ffc9
ffe4
ffd0
ffe6
ffa9
ffc2
ffca
ffcd
fff0
0011
fffe
fff7
ffe9
ffc3
ffdd
fffb
fffc
fffd
fffe
0000
fff9
fff5
ffe8
ffd4
ffd2
ffac
ffa6
ffc3
ffcd
ffe8
fffe
fff5
fff9
ffd9
0009
ffea
ffe4
ffda
ffcd
ffcf
ffa8
ffad
ffd7
fffe
0008
0004
fffb
0000
fffe
ffec
ffde
ffd1
ffd7
ffc1
ffb5
ffd7
fff5
fff4
0005
0034
0068
001f
ffff
ffe9
ffc4
ffb6
ffb2
ffa5
ff9d
ffbb
ffea
0004
0008
fffa
0005
fffa
ffff
fff8
ffdf
ffcc
ffcf
ffd1
ffcb
ffed
0007
0000
0038
007f
00b2
0044
000c
ffcd
ffc5
ffab
ffb9
ffb8
ffbc
ffc7
ffe7
ffff
0005
fff9
0003
0007
fffc
fff2
fff1
ffd4
ffd5
ffca
ffcd
ffd5
ffde
ffeb
004f
00b3
00b0
0037
fff4
fff7
ffcd
ffc6
ffd2
ffd0
ffdf
ffe1
fffc
0001
0003
fffc
fff9
0000
fffb
0007
ffeb
fff4
fff6
ffe5
ffe0
ffa8
ff98
fff1
0045
00db
007b
0019
001b
fff9
ffc8
ffda
ffe6
ffee
ffeb
fff5
fff6
fff9
fff9
0004
0001
fff9
0008
0005
fffb
fff0
ffec
fffc
ffd7
ff68
ff6d
ffe7
0050
009e
0067
0022
0036
ffc4
ffbd
ffcf
ffe1
ffe7
ffe9
ffec
fff7
0004
0005
0005
0003
0007
0001
0004
fffa
ffe6
ffda
fff0
ffbc
ff66
ff75
0003
0059
0086
0063
0030
ffd3
ff8a
ff9d
ffc5
ffd8
ffe7
ffeb
fff2
fff8
fffd
0008
fffd
fffa
0004
0000
0005
fff2
ffe4
ffd7
ffea
ffbf
ff90
ffd5
001c
006e
00b1
0023
0022
ff94
ff88
ff93
ffc0
ffce
ffea
fff3
fff6
fff5
0002
0001
0002
0003
0007
fffc
fffb
ffe7
ffc5
ffc8
ffc0
ffdb
ffe7
ffdb
ffe6
0064
00a0
fff6
ffdf
ff5a
ff7e
ff9c
ffbf
ffd6
ffdc
ffec
fff2
fffb
fffe
fff9
0002
0007
fffa
fff9
0002
ffd5
ffa0
ffac
ffc5
ffdc
0006
ffd3
000d
006c
0077
fffd
ffa4
ff70
ffa2
ffc7
ffcc
ffdf
ffec
ffe6
ffee
fff6
0004
fff8
0002
0003
0008
0003
fffa
ffb9
ff8d
ffa6
ffdc
fffa
ffdc
ffd9
0004
0030
0035
ffce
ff94
ffc7
ffef
ffe8
fffe
fff5
ffec
fff4
fffb
ffff
000a
fffe
fffe
0000
fff9
ffff
ffe3
ffac
ffb2
ffdc
ffe5
0002
ffeb
fff0
ffe4
0027
fff2
fffe
0020
0002
0019
002e
0018
fffc
fff8
fff7
0006
0004
0003
0002
0000
fffb
fffb
0000
ffe9
ffc6
fff3
0000
001f
0015
0025
0023
000e
fffa
0002
fffb
002e
0043
0052
0042
0022
0003
fff4
fff1
000c
000b
0002
0008
fffd
fff8
0000
0007
001a
003d
0047
0035
0029
0005
0034
ffe3
ffdf
ffd5
000b
0016
0008
001b
0048
002f
0036
0018
ffed
ffef
0007
0008
fffa
fff9
fffe
fff8
fff9
0001
0015
0073
005d
002a
000c
000c
ffe7
ffb0
ff8e
ffa5
ffeb
0000
0002
0042
004b
002e
0023
0003
ffe3
ffed
0004
fffe
0000
fffe
fffd
fffd
0008
ffff
0005
004a
0042
0018
fffe
0004
ffe3
ffe1
0000
ffe4
ffd2
0000
0011
0034
0015
0010
fff3
ffe3
ffea
ffe8
0000
0008
0004
fffa
0002
0003
0007
fff7
ffef
0006
0006
ffe8
ffc9
ffd2
ffca
ffb3
ffc2
ffb3
ffb0
ffbd
ffa9
ffef
fff9
0005
fff8
fffc
fff7
fff9
fffd
0005
fffa
fffb
fffe
fffd
0003
0005
fff8
fffa
ffe8
ffdc
ffde
ffcc
ffa1
ffa9
ffbc
ffbb
ffbb
ffbc
ffc6
ffd9
fff1
ffef
ffff
fff6
0003
0000
0002
0003
fffc
0007
0004
0006
0001
0005
0005
0003
0004
fffb
0001
fffd
fff8
fffa
fff1
ffe4
ffea
fff6
fff8
fff8
0000
0002
fffa
ffff
ffff
fffb
0001
fffe
fffc
fffe
fffd
0008
0003
0008
0002
0002
0003
0001
fff9
fffb
fffe
0000
0002
0002
0006
0001
fffd
fff9
fff8
fffb
0002
0004
0007
fffe
0000
fffe
0000
0002
0000
0000
0001
0003
fffe
fffb
0002
ffff
fffc
0003
0000
ffff
fffc
ffff
fff9
0002
0000
0005
0000
0000
0002
0006
fffc
0005
0002
fffa
0003
fffb
fffe
fffc
fffa
0007
fff8
0004
fff8
ffff
0000
0003
fffb
0000
fffe
0001
0000
0008
0009
fffc
0005
fff8
fffe
ffff
0008
fffe
fffa
fffe
0004
0003
0007
ffff
0004
fff8
0003
0004
0005
fffa
fffe
000b
0000
0006
0007
000c
0012
0016
001b
000b
fff4
fff0
fff6
fff5
0000
fff7
0005
fffc
0000
fffc
0003
fffb
0005
fff9
0004
fff9
0004
0005
0017
0040
004e
005e
0053
0067
0042
0036
003a
001c
ffec
ffe5
ffd4
ffe5
ffe6
ffee
fffd
fffb
0006
fffe
fffe
0000
0006
0006
fffb
0005
000c
0016
0019
0050
0040
0049
0051
0037
003e
001e
0018
0016
0000
ffe0
ffd8
ffc5
ffbc
ffc3
ffe8
0001
0006
ffff
0000
0006
0005
0008
0000
000b
001b
0018
0033
0027
0032
0039
0032
0033
001e
0024
0044
0038
0024
fffc
0003
fff3
ffd2
ffc8
ffda
fff4
ffff
0000
0002
fffd
fffa
0008
0014
001b
0021
0028
001c
002c
0025
0004
0004
000f
0015
001b
001d
0005
0000
ffe7
ffea
ffe6
ffd7
ffab
ffc5
ffee
fff5
fffe
fff8
fffd
0007
000e
0030
002b
003a
0009
001c
0006
fffc
0018
fffe
002c
000d
ffe9
0000
ffc1
ffe8
ffea
ffde
fffd
0009
ffa0
ffb3
ffe8
fffd
fff8
fff8
0008
0001
0002
0032
0021
0019
0017
0011
0003
003d
001d
fff6
fff8
0012
000d
fffa
fff9
ffdb
0019
0003
fffd
fff2
ffe5
ffb0
ffdf
fff7
0007
fff9
0004
0000
000b
0028
0038
0009
fff7
fff8
002a
0036
000a
000c
0019
0030
0033
0029
000c
0012
ffff
fffb
ffe7
fffe
ffda
ffb0
ffea
0002
0001
0006
fff9
0002
0004
0007
002c
002f
fffb
fffb
ffe6
ffeb
fff8
ffee
ffc3
fff8
fff1
0005
0022
0007
fff4
fffe
fff0
fff2
ffea
ffcf
fff4
fffa
0001
fffa
0002
0000
fffa
ffe7
ffe8
ffda
ffb0
ff9f
ff8a
ff5b
ff66
ff5e
ff37
ff7b
ffa4
ffd6
ffb8
ffe7
001b
ffee
fff4
fff4
ffde
fff0
0006
ffff
0000
0007
0004
fff9
ffee
ffcb
ff92
ff3e
ff28
ff81
ff7a
ff6c
ff78
ff76
ff89
ff9f
ff91
ffb3
ffb3
ffd1
001a
fffa
fffa
ffe2
ffc1
0017
003b
0014
0000
fff9
0003
fff8
ffe9
ffb2
ff53
ff34
ff52
ffa6
ffb6
ffe0
0001
fff0
001d
fff8
ffb8
ffce
ffe0
ffd7
ffe3
ffe5
ffff
ffe5
fff1
003c
0059
003e
0011
0001
0000
fffd
ffef
ffc3
ff85
ffb0
fff7
ffea
ffed
0006
000b
fffd
003d
0013
ffe9
ffe2
ffcd
ffff
ffec
fffd
ffe1
ffea
000e
0049
0058
0030
0000
ffff
fffe
fffd
000d
0017
001f
0030
0012
0007
000d
0001
0001
fff8
0032
0017
0001
fffa
ffde
ffde
fffb
ffcb
ffde
ffcc
fff6
006a
0079
003e
0000
0007
fffa
fffb
002c
0046
0041
0054
000c
ffe9
0026
0025
0026
004d
0055
0026
ffff
0025
003b
000b
0001
ffe7
0033
0025
002f
0080
00af
0052
0008
0002
0000
0006
0036
005f
0050
003e
001e
0011
0028
004b
0053
005a
0049
000e
001e
000e
fff1
0011
0003
000a
0026
0028
0017
0080
00b4
002e
0008
fff8
0007
ffff
0018
0064
0066
003b
0067
0019
001a
0041
0024
0057
0048
0025
fff7
0021
0030
001b
000f
fffe
0023
002d
0060
00a6
007c
000e
fffe
0007
0000
fffd
fffa
0043
0034
0022
0062
003c
0042
0052
003d
003c
005d
002c
002b
0030
0035
0017
fffe
001b
0036
005a
0055
0058
005d
0022
fffc
0006
0004
000a
000f
0045
0043
0035
0068
0046
003e
0040
0055
0035
0013
0009
0019
0014
fff7
0022
003c
003d
0046
0043
0046
0056
002a
0012
0006
0006
0006
0005
0014
002b
002e
0031
001f
fffe
0039
001d
001e
0007
001b
000a
ffeb
0017
0033
004e
005f
001c
0030
004c
0070
003e
001b
0000
fff8
0001
0002
0002
0019
0022
001d
003b
0040
0043
0041
0024
001a
0011
fffd
fff0
ffe3
fffd
0000
0033
0036
003c
0046
0050
0045
0028
000b
fffe
0002
ffff
0007
fff9
0000
fffd
fff0
0000
0019
001a
0016
fff7
001e
0015
ffed
fff8
fff0
fff7
fffa
003f
0056
004b
0049
004d
002b
0025
0011
fff8
fff8
0000
fffe
0002
ffed
ffee
ffc9
ffb8
ffba
ffd6
ffdb
ffc6
ffde
0001
0000
0029
0009
fffd
001a
002d
0006
0007
001c
0014
000c
0024
000d
0000
fff8
0007
0008
0000
0002
fffe
fff4
ffef
ffd1
ffb8
ffb3
ffc5
ffbc
ffce
ffdc
ffeb
fffa
fff3
ffe9
ffe8
ffd9
ffe3
fff0
fff5
fff6
fff9
fffe
0003
0005
0004
fffc
fff8
fff8
fffd
0000
fffb
fff5
fffd
fff4
fff4
ffef
fff7
fffe
fffb
fff4
fff3
fff4
fff6
fff4
fff6
fff5
fffe
fff8
ffff
fffd
0008
0007
0005
0000
fffe
0002
fffa
fffd
ffff
fffe
fff8
0003
0006
fffb
0002
ffff
0000
0000
0007
0000
fffa
fffd
0003
0002
ffff
ffff
fffd
fffd
fffc
0001
0002
0007
fffe
0000
0005
0003
0001
0002
0000
fff9
0000
ffff
0008
0008
0001
0008
fffc
0007
0007
0000
fff9
fffe
fffe
0000
fff8
0001
fffd
fffe
fffc
ffff
fff8
fffc
0000
0005
0008
fffa
0003
fffb
fff9
0000
fffb
fff8
fff7
fff9
0007
0004
fffd
fffa
fff9
fffb
fffd
0005
0002
fffd
0006
fffb
fff9
0001
fffb
0002
0007
fffc
fffa
0003
fff7
0004
fffa
0007
fffd
fff9
0000
fffc
0000
0001
fff9
fffb
0000
fffd
ffff
fff7
fff9
0006
fffb
0007
0001
0002
0008
fffb
ffff
000e
000d
0006
0015
0002
0018
003e
004c
0039
0054
0051
0042
003f
0033
0023
002c
0000
fff4
ffef
0003
0000
0006
0007
0001
fffd
0008
fffe
000e
001d
0031
0036
0050
004f
0059
0063
006d
006b
004c
004b
0055
002e
004a
001e
fffb
ffdf
ffe0
ffdc
fffe
0000
fffd
0008
0001
fffd
fffe
000c
0027
004b
005c
004a
0035
002a
0033
0029
0017
001c
0004
0029
0043
fff8
0006
001d
ffe8
ffd8
ffd8
ffc5
ffeb
0000
0008
ffff
0006
fff9
fffc
001e
002a
0046
0047
0020
0027
0046
0048
0022
0015
0047
0021
0024
0039
0011
0039
fff1
000f
0003
ffd9
ffd8
ffe8
fff5
fff9
ffff
fff8
0008
0003
0012
0052
0051
0035
0011
000e
001c
0006
0001
0025
0014
0040
0034
0003
0023
0003
001e
000a
ffdc
ffe0
ffc7
ffcd
fffa
0003
fffa
0000
fff8
fff8
0017
0055
003b
0025
0011
fffa
fffa
0019
0007
0024
0015
002b
002f
0020
001c
0040
001e
0026
0015
0028
ffa4
ffae
ffeb
0001
0006
fffd
0006
0005
0020
005a
002b
0028
0026
001d
0000
ffe6
ffab
ffca
ffec
003e
005c
0042
001f
001c
0031
0042
003e
0035
ffd4
ffc2
ffec
0002
ffff
0004
0008
fffe
0027
0032
0002
0000
fff3
ffc1
ff91
ff89
ff80
ff82
0009
002a
0027
0037
0032
002e
0036
0047
001e
001b
ffe4
ffd6
fff4
0000
fffe
fffb
fffd
fffb
001f
0016
ffcf
ffb7
ff97
ff86
ff8e
ffa3
ffda
ffe5
001a
0035
002d
fffe
0036
0020
0025
004c
ffeb
fff6
ffe0
ffdb
0006
fffa
0000
fffa
0001
0006
000d
fff3
ffbf
ffac
ffa6
ffab
ffd7
000d
ffe4
000e
0018
005f
0023
0014
0008
001f
fffc
ffec
ff94
ffb5
ffc7
ffee
000a
0008
0003
0006
0008
0001
0003
ffe1
ffc9
ffb3
ffab
ffce
ffe7
ffdc
ffc6
0008
0049
003d
ffe8
000f
000f
002a
ffe4
ffaf
ffa1
ff9e
ffcb
fff3
fffb
fffd
0003
0003
0005
fff8
000a
ffeb
ffc6
ffad
ffaa
ffd4
fff3
ffe1
ffd2
0026
0015
001d
0007
0001
000b
0008
ffe6
ffcf
ffec
ffbf
ffe1
ffee
fff9
fffa
0002
fff7
0000
0004
0006
ffff
ffed
ffd1
ffb4
ffac
ffc3
ffda
fff6
0012
0023
002c
0028
fff4
fff2
ffe4
0013
0031
0023
002f
0023
0019
fffe
0006
0002
0004
000a
0014
0013
0032
000b
ffe5
ffc5
ffa7
ffd0
ffd3
fff2
0008
0046
0003
ffce
ffbd
fff1
003b
004d
0027
001f
0048
0052
0025
fff3
ffff
0000
0008
fffb
0013
0037
0049
0025
ffef
ffee
ffcb
ff81
ff73
ff91
ffbd
ffcc
ffa2
ffb6
0000
002f
001b
0051
0007
0030
004b
004a
fff4
ffe2
0000
0003
0002
fff9
0008
0063
0057
003e
0024
ffdf
ffdb
ffa6
ff93
ff97
ff8b
ffa6
ffb7
001d
0050
0035
0028
0030
0019
0056
005f
001f
ffd6
ffe8
fff6
fff9
fffb
0008
0005
005a
0056
006c
0027
0003
0000
fff1
ffe1
ffc0
ffc5
ffe6
ffff
000d
0022
0046
0037
002e
0011
0043
0020
0012
ffec
fffc
fffb
0002
0000
fffb
fffd
0057
0057
0052
0057
0034
002f
0036
fff3
ffd3
ffa0
ffdd
000e
fffb
0015
0034
003f
0021
003e
002c
0003
fffe
fff2
fffa
fffc
fffa
fffa
0007
0002
003c
0049
0018
0030
0029
001f
ffda
ffe1
ffd5
ffec
ffef
ffe6
0000
0015
0009
0032
003e
000e
fff0
fffb
ffea
ffe2
fff4
ffff
fff9
fff9
fffd
0011
001e
002a
0013
0018
000e
fff9
0000
0006
001c
ffed
ffed
ffea
0015
0008
001d
0015
002c
001c
ffeb
fff4
ffec
fff0
fff9
0002
fff9
fffb
0006
0000
002a
004b
0043
0042
0036
0005
001d
001e
0025
ffdb
0013
ffe9
fffc
ffd9
0010
0040
0009
fffe
fff2
ffeb
fff2
fff3
fff7
0007
fffa
0002
ffff
0007
001d
0036
003a
006b
006d
004c
0031
0059
004e
0036
0058
004a
0020
0031
0021
ffe8
ffe7
ffe8
0000
0002
fffd
fff9
fff7
0004
0007
0007
0000
0003
0005
0007
0012
0028
0054
007c
008b
0085
0080
008d
0077
004c
001e
002f
0014
0005
0018
fffe
fff8
fffd
fff6
ffff
0004
ffff
fffc
0000
0001
fffe
fff9
fffb
0000
0007
000d
0001
0001
0008
0000
fffe
000a
0005
0003
0001
000c
fffe
0008
0003
0002
fff7
fffd
0003
0007
fffe
0008
fffe
fffb
fffd
0000
ffff
0004
fffb
fffe
fff7
0007
fffe
fff9
ffff
ffff
0000
fffe
0004
fffc
fffc
fffe
0001
0007
0000
0007
0007
fffc
0000
fffc
0003
fffd
0002
0000
fffa
fffa
fff8
fffb
0002
0000
0006
fff8
ffff
fff7
0000
0003
fff8
0008
fffe
0008
ffff
0005
0008
fffd
fffe
0004
fff9
0005
fffb
0008
fffb
fffd
0006
fffc
0002
fffb
fffd
fff2
fff8
ffef
ffe9
ffeb
ffff
fff0
ffeb
fff2
0001
fff8
0003
ffff
ffff
fffe
ffff
fffd
fff9
0005
fffb
0005
fffd
0005
0007
fffb
0001
ffee
ffe1
ffee
ffdb
ffd8
ffb9
ffd6
ffe3
ffdf
ffda
ffe2
fff5
fffd
fff6
fffa
0000
0003
0005
0006
fffc
ffff
fffd
0004
0002
fff9
ffff
fff8
ffee
fff5
ffd5
ffcc
ffba
ffaf
ff97
ff89
ff9a
ffa6
ffb3
ffca
ffce
fff1
fffc
0006
0003
0005
0006
0003
fffa
fffb
0006
0000
0002
fffc
0002
0005
ffef
fff8
ffdd
ffc3
ffad
ffac
ffaf
ffb8
ffb5
ffa2
ffc4
ffd4
ffe3
0015
002c
0035
0029
002b
0014
0000
fff5
fff9
fff9
0003
fffd
0004
0002
0009
0005
0003
fff3
fffd
ffdd
ffdb
ffe0
ffc0
fff0
ffef
0002
fffe
0009
001f
0011
001f
003d
0052
001b
fff7
ffff
fffb
fffe
0000
fffb
fffc
000b
0022
001c
0009
0007
0005
ffe2
ffca
ffcf
ffb1
ffac
ff9d
ffb2
ffca
ffb4
ffec
ffeb
fff9
003f
0066
002b
fffa
000c
fff9
fffe
fffd
fffb
0001
0013
0025
0012
0010
fffa
fffb
ffde
ffd5
ff97
ffb2
ff9e
ff9a
ff98
ffcc
ffd1
ffe4
ffe2
fff7
0024
0054
001e
0005
0011
fffb
0001
fff7
0004
0000
ffff
0022
000a
fffe
ffe6
0000
ffde
ffe3
ffbf
ffc0
ff9d
ffa8
ff9c
ffca
fff2
ffe5
ffec
fff2
fff9
0020
0005
0007
fffb
0000
fff9
fff8
fffd
ffeb
ffeb
fffd
ffeb
fff1
ffee
fff0
ffdc
fff3
ffde
ffd2
ff64
ff9e
fff4
ffe3
0007
fffe
0001
fffd
fff4
fff9
ffc1
ffd5
ffef
0000
0001
fffa
fff4
ffe2
ffea
ffe6
ffda
fff3
fffd
001b
0011
0005
0035
ffb6
ff3c
ffdf
fff1
0009
0002
000e
ffe6
fff3
ffe7
ffa9
ffb5
ffca
ffe9
fffe
0002
0003
fff0
ffe5
ffd2
ffe6
000e
000e
002a
0055
005a
0037
0066
ff7d
ff46
0021
0050
0022
fff4
fffb
ffd5
ffdb
ffcf
ffa6
ffb6
ffe3
0004
0002
fffa
fff9
fff1
ffdf
ffc5
fff8
001e
004f
0062
0041
0072
0085
00b6
ffec
ff96
0037
005a
0009
fff9
000e
0019
002a
0006
ffcd
ffeb
fff1
fff3
0000
fff8
fffb
ffeb
ffea
ffed
002a
005e
0050
0057
0058
0062
009e
006b
ffca
ffe4
0046
0039
0043
003c
002d
0051
0049
0023
fff1
ffdd
fff7
0005
fffe
ffff
fffb
fff4
fff9
0040
0064
0057
0057
0044
003c
004c
0065
0048
ffca
fff9
002e
005e
007a
0047
0062
0031
001c
0020
fff1
ffd9
ffea
ffed
0000
fffb
0000
fffe
0001
0031
0031
0038
004d
004d
0052
0036
0059
002b
ffda
0005
0044
0082
005d
001d
0032
ffe7
fff2
0019
ffee
ffb3
ffd4
0003
0008
fffa
0000
fff8
ffe8
ffdd
fffd
0017
0048
005c
0036
fffa
fff4
000a
000b
0046
0083
006f
004b
0032
0017
002f
0018
fff3
ffdb
ffca
ffdb
ffea
fffb
fffd
0002
fffe
ffdf
ffd9
ffe1
fff1
0032
003d
0023
fff5
ffe7
000c
0043
0084
005c
0055
003f
002d
ffe6
0009
000d
ffdf
ffd7
ffd6
ffdf
fff8
0002
0002
0003
fff5
ffe1
ffdf
ffea
ffec
0001
0016
0009
ffc7
ffe5
0033
004d
0053
0036
0036
ffd4
ffed
ffe1
0000
ffed
ffa7
ffc8
ffcb
ffe2
fffd
fffd
0005
0004
fff4
fff3
ffec
ffee
ffec
ffd6
ffba
ff9f
ff9c
ffc3
ffa6
ffdc
001b
0012
ffff
ffda
ffdd
ffca
ffd4
ffdf
ffa6
ffc0
ffd1
ffe7
0000
0008
fff8
fffc
fffc
ffef
ffe0
ffd4
ffc9
ffa0
ff92
ff96
ff9b
ffca
ffc2
ffa8
ffe6
fffc
0005
0007
ffe9
ffc4
ffe0
fff2
ffcc
ffd2
ffe7
ffed
0008
0005
ffff
0007
0000
fffc
ffe3
ffe6
ffb5
ff9a
ffca
ffcf
ffc8
ffe3
ffd7
ffca
ffe2
ffff
ffe7
0000
ffec
fff2
0007
0008
ffed
fff0
ffef
fffa
0005
fff9
fffa
fffd
fffa
fff9
ffea
ffdc
ffd3
ffcc
ffcd
ffc5
ffe4
ffe9
ffd8
ffe9
ffe0
ffe5
ffee
0005
0003
0038
0018
0036
0000
fffb
ffff
fffc
0007
fffa
fffe
0002
0005
fff9
fffe
ffec
ffeb
ffef
ffef
fff6
0000
0001
ffe8
ffea
fff5
fff1
0017
0011
002f
002f
0035
0025
fff6
ffea
fffb
fff7
fff8
fffa
0007
0005
0006
0006
fff8
fff5
fff2
fff3
ffef
0000
fff3
0013
ffd8
ffda
ffed
ffe6
fff7
ffe8
fff5
000f
000f
000d
0009
0001
0000
0003
0005
fffd
fffc
0004
0002
0000
fff8
fffa
ffec
ffd1
ffbc
ffc5
ffcc
ffba
ff99
ffb5
ffc1
ffcc
ffa5
ffa2
ffa9
ffb2
ffd3
ffdd
fff6
0000
fffb
0003
0004
0008
0000
0000
0000
0001
fffa
ffff
ffef
ffe3
ffd2
ffc9
ffba
ffb2
ffaa
ffa7
ff8b
ff96
ffae
ffa4
ffb1
ffcc
ffeb
ffec
fff2
0003
0006
fffc
ffff
fffb
0003
0001
0004
fffd
fff8
fffd
fff8
fff9
fffe
fff6
fff9
fff3
fff3
fff4
ffed
fff4
fffc
0000
ffff
fffe
ffff
fffb
0003
fffb
0006
fff8
fffa
0002
fffd
0001
0007
0004
0008
fffd
fffc
ffff
ffff
fffc
0000
0008
fffb
0005
0004
0005
0002
fffd
0003
fffc
fffb
0008
0007
fffa
0007
0001
0002
0008
0000
fffe
0005
fffe
fffe
fffd
0008
0004
ffff
0000
0000
fffb
0001
fff9
0000
fffe
fffc
0008
0002
0003
fffa
0001
0002
0004
fffe
ffff
fff9
0005
0006
0004
0004
0005
0008
0002
0003
0002
fffb
0000
fffd
ffed
ffef
ffea
ffe6
fff8
0002
0002
0007
fffe
fff9
fff6
fff7
fff9
0007
0001
fffc
0001
fff7
0000
0007
0001
0003
fff2
fffb
ffff
fff1
ffee
fff7
ffe5
fff2
ffdf
fff0
fffa
ffff
0019
001f
002c
0028
0033
001d
0000
fffc
0008
fffd
0001
0007
fffa
fffe
0001
fffc
ffe7
ffe6
ffd9
ffc2
ffcb
ffe3
0009
0000
ffdd
fffe
0039
001a
0031
0043
0021
ffec
002b
001a
0035
0039
000d
0002
0002
0003
0008
0003
fffb
ffe6
ffc8
ffc5
ffd3
ffea
0002
0013
0015
fff6
fffb
ffec
ffd8
000b
0028
0027
0005
0032
0014
0040
0047
0055
0029
000a
fffd
fffb
ffff
fff8
fff2
ffd1
ffd8
ffd4
fffd
000b
0007
0000
0002
0007
fff8
001b
fffa
ffef
fff8
0011
002e
002a
ffff
0029
0059
008e
005e
0021
000a
0002
0005
0000
ffe4
ffb5
ffc3
ffea
000c
0035
000d
002f
0023
0010
ffea
001d
ffd6
000f
0012
ffff
0013
001e
001e
0029
005d
00ab
0092
002a
0005
0000
fffd
0000
ffe9
ff90
ffbc
ffe6
ffde
0018
0012
0013
002a
0000
ffe1
ffdc
ffd4
fff0
fff7
fffa
0012
003e
0033
0023
008b
00f1
00ae
002e
0000
fff7
fffb
fff8
ffe2
ffaf
ffc4
ffef
0000
0023
000e
0021
005a
002a
fff4
ffc7
ff91
ff9e
ffcd
fff3
ffeb
0005
0046
003d
0099
0129
00ef
0034
fffe
fffc
0001
fffe
ffe1
ffd7
ffdf
fffa
002b
003b
0052
0046
0046
004f
002e
000f
ffdd
ffbe
ff93
ffa5
ffb2
ffcc
fffb
0017
008d
0131
010d
004d
0002
0000
fff6
0005
ffdf
fff0
fffa
0033
0025
002f
001b
0025
001f
0038
0066
000e
ffda
ffd9
ffc6
ffdc
ffa0
ff74
ff83
ff8f
fffa
0064
009b
0026
fffd
0004
0004
fffd
fffd
ffff
0003
003e
0023
0001
fff7
0032
0034
003a
004c
fff7
ffef
ffaa
ffa3
ffb8
ffac
ffa1
ff47
ff22
ff3c
ff75
0000
0011
fffd
0005
ffff
ffff
0006
000d
0020
0004
002a
0006
000c
0032
0043
005c
003b
fff7
ffbf
ff90
ffc4
ffde
fff7
ffed
ffbe
ff98
ff65
ff87
ffde
fffe
fffe
ffff
0004
fff8
fffe
0004
fffc
fff8
fffa
0011
0027
004a
0005
000f
0007
ffef
ffdd
ffc0
ffbe
ffd5
ffc4
ffed
ffe7
fff8
ffd3
ffca
ffd9
fff7
0001
0004
0008
0005
fffc
fffe
ffd5
ffd7
ffd4
fff9
0029
001e
0007
0019
fff3
ffbd
ffbc
ffd1
ffc9
0020
fff6
ffe1
fff5
ffec
000a
0000
ffe9
fffe
fffe
fffb
fffe
fff8
fffe
ffe9
ffda
ffd4
ff9b
ffbd
ffab
ffdc
ffd2
fff7
ffe6
ffb6
ffe1
ffc0
ffd7
ffe5
0001
000f
0005
0021
0017
000b
ffe6
fff1
ffff
0008
0008
fff9
0007
0002
0023
004a
ffd0
ffaa
ffb3
ffaf
ffba
ff86
ff9b
ffa6
ffea
000b
001d
0033
0007
001d
0008
fffd
001f
000e
ffe2
fff3
0006
0001
fffe
fffd
fffc
0030
0040
0077
0037
fff4
ffd9
ffd1
ffe2
ffce
ffeb
0004
0005
fffd
0020
fff5
0014
001f
000b
0017
002d
0025
ffee
fff4
0001
fffa
fff9
0003
0003
0042
0040
005c
0030
0048
0011
0006
000f
0006
001a
fffa
0008
ffed
fff4
0015
0006
0028
0014
001b
0031
0029
fff3
fff7
0000
ffff
fff8
000c
0014
0023
0046
0034
fffb
0041
0036
0003
0021
0001
0017
fffa
fffe
0019
0026
0019
001a
fff9
000e
005a
0033
0012
0005
fffb
0001
fff8
0003
fffb
0005
002e
0021
0020
002d
0035
001e
000c
002c
001c
0018
0020
001a
0005
000b
fffb
0000
0029
004e
0055
003b
0016
0011
0007
0004
0005
fffa
fff8
0006
002a
fffc
ffdd
0000
000d
000d
fff5
0016
002c
0039
0027
0004
001d
0008
001d
0022
001b
001a
0029
0029
000d
000d
0005
fffb
0008
0002
0003
0000
001e
0013
fff9
ffdc
001f
001b
003d
001c
0022
ffec
000e
0004
0019
fff7
ffd6
fff7
001d
0003
000d
0018
000e
0008
000a
0003
fff9
fffd
ffff
fffc
0001
0005
fffb
0004
001a
004d
0032
002d
0032
004c
003e
0038
0014
0022
0028
0005
0008
0009
001f
0010
0004
fff6
fffe
fffc
0007
fffa
0005
0006
0002
0003
0000
fffa
fff9
001e
0024
0039
0034
003d
0018
0045
0040
0037
0013
0017
0002
0017
0022
000f
000f
0003
fffb
0008
0007
0007
0000
fffc
fffb
0001
fffa
fffa
fff5
fff4
fff6
0010
0014
fffe
fff5
0009
0003
fff2
fff2
fffc
fffe
0000
fffe
0007
0005
0002
0000
0002
0008
0002
fffc
0003
fffd
0000
fffb
0000
0000
fffb
0006
000a
fffa
0001
fff8
fffd
0002
fffe
0000
fffb
0006
fffb
0000
0000
0006
0000
0005
0002
0005
0000
0003
0009
fffe
fffd
0006
0003
fff8
0003
fff8
fffc
0004
0006
fffe
0007
0009
0007
fff8
fffd
0000
0007
ffff
0001
0004
fffc
fffb
0009
0000
0006
fff8
fffd
0006
0000
0008
0004
0017
0004
000b
000b
001a
000b
ffff
0006
ffff
000c
0007
000f
0003
0006
000d
fffb
fffd
0007
fffe
fffe
0000
fffc
0000
fffd
0003
ffff
0005
0015
0025
0028
0038
0043
0048
0048
0048
002b
0032
0030
0029
0031
002b
0028
001b
000a
fffa
fffa
0000
0000
0006
fff8
0000
fffe
0002
000c
0011
0018
0020
0029
0039
0046
002c
003d
0030
002e
0018
0013
0031
003d
0013
002a
0024
0031
0011
fffc
0007
0000
0007
fffc
fffb
0007
fffd
0008
000b
000c
0012
0008
000b
ffea
ffe2
ffe6
ffeb
ffdd
0007
0017
000e
0015
002b
0038
0044
0030
0008
fff6
0008
fffd
0001
0002
fffe
0002
fffa
ffe8
fff3
fffa
000e
0001
0003
ffb8
ffcb
ffc2
ffe7
ffd4
ffd1
fffd
001a
002c
0023
0020
0020
0032
000b
0000
0008
000a
0003
0000
fffa
fff2
fffe
fff2
ffdd
ffed
fff6
ffde
ffc1
ffc2
ffcf
ffba
ffcf
ffe5
ffcc
ffd3
ffc7
ffdc
ffe7
fff1
fffe
0006
000a
0003
0001
0001
fffb
fffa
fffe
fff9
0000
ffee
ffdb
ffee
ffe6
ffd6
ffcd
ffea
ffdb
ffb7
ffd7
ffd0
ffae
ffbe
ffb6
ffa5
ffbd
ffc9
ffc3
ffde
fffe
ffea
0000
0008
0007
fffa
0000
fff1
fff7
ffef
ffce
ffd8
ffe2
ffe9
ffc2
ffd4
ffcb
ffd3
ffb8
ffa0
ff9f
ff99
ff71
ff7b
ff9f
ffb5
ffac
ffaa
ffbf
ffe0
ffea
ffff
0008
0005
fffc
fff3
ffff
ffdb
ffd5
fff8
fff1
ffce
ffc2
ffdc
ffcf
ffaf
ffbe
ffa0
ff80
ff57
ff62
ff88
ffa9
ffb7
ff96
ffb3
ffb0
ffc9
ffde
fff7
fff8
0008
0004
ffee
fff8
ffd9
ffd8
0007
000a
ffe4
fff0
ffe0
ffc5
ffea
ffbd
ff83
ff88
ff84
ff95
ff96
ffbd
ffb3
ffb0
ffde
ffc5
ffb1
fff1
fff8
0002
0005
ffff
fffc
fff8
fff4
fff7
001d
000c
0022
0004
fff6
0018
001f
ffcf
ff7b
ffb5
ffab
ffb3
ffd3
ffdd
fff5
fff6
0037
ffef
ffc8
ffd7
fffa
fffd
0008
ffff
fffe
ffef
0007
0026
0036
0020
0022
0005
0039
0035
0022
ffbf
ffac
ffe9
ffe1
ffd0
ffb7
ffe1
0019
0046
008f
0038
ffdc
ffe2
fffb
0007
0000
0000
ffed
ffea
001b
004c
0015
0012
001c
0033
0018
002a
0007
ffd6
000d
0007
ffcd
ffd2
0000
fff1
0023
0061
009b
0056
ffde
ffdb
0002
fffb
fffc
0007
fff7
ffd2
0015
0036
001f
002e
003c
0043
005f
002a
fff2
fff5
0019
001c
ffc7
ffda
fff5
0000
0029
004d
0068
0030
ffe7
ffd9
ffff
0006
fffa
0002
fff6
ffb9
0001
0038
0033
0037
002c
004e
005e
002b
0012
0034
001e
fffe
ffe8
ffef
fffc
001a
0021
001a
002f
001c
fff7
ffe7
fff7
0002
0002
0000
fff3
ffc0
0004
0043
004b
003f
004e
0065
0094
000b
000a
0027
0010
fff6
ffd4
001c
0026
0002
fff8
0001
000f
000d
ffef
ffea
fff4
0001
0002
0005
ffe7
ffac
ffe7
0014
003c
004a
0056
0088
008b
0028
0022
0022
0000
ffef
0013
0021
002c
0009
000a
0012
000d
ffff
ffef
ffec
fffb
fff8
ffff
0005
ffef
ffc1
ffbc
0000
0030
0034
003e
0043
004b
008c
0042
0015
000d
0031
003e
0042
0003
000a
000b
0001
000f
fff3
fffc
fff7
0000
0004
0006
fffa
ffee
ffd4
ffc3
ffef
0012
0003
003b
0067
0092
008c
003b
004b
0040
003c
002c
001a
0018
000f
001d
0015
fffc
fffb
ffe7
fff2
fff6
fff9
0001
0003
ffed
ffd3
ffb9
ffd3
0012
0001
0038
0065
0047
0074
004b
008c
0057
0029
0015
0038
0017
001f
0006
fff3
fffd
ffeb
fffd
fff8
0002
0008
0001
fff9
fffc
ffe2
ffc9
ffac
ffea
0022
0035
0045
0052
008c
0087
0072
004a
0034
004b
0049
001a
000e
ffe9
fff8
ffeb
fff0
fff1
fffc
0002
0007
fff7
fffd
0003
ffeb
ffe1
ffb6
ffba
ffe4
ffff
0027
0008
0045
002f
0013
0039
001e
000c
0001
fffc
fff6
fff7
ffe1
ffea
fff5
0003
0009
fffc
0007
0006
0001
fff7
fff7
fff9
ffec
ffcf
ffbe
ffb5
ffa4
ffb0
ffdb
ffee
fff9
ffef
ffe6
ffe6
fff3
fffb
fff8
fff4
fffc
fff9
0001
0006
0007
fff8
fffb
0000
0000
0000
0007
0004
fff7
ffed
ffe1
ffd1
ffc6
ffb1
ffb4
ffab
ffb4
ffc4
ffd5
ffda
ffed
ffea
ffed
fff3
0000
fff9
ffff
0003
0006
ffff
fffa
fffd
fffe
0000
fffa
0007
0000
fff7
fffd
fff5
fffe
fff4
fff4
ffe3
ffe2
ffeb
fff7
ffee
fff8
fff4
fff6
fffb
fff9
fff8
fffe
ffff
0004
0004
0000
fffe
ffff
fff9
0006
0007
fff8
fff7
fff7
fffd
fffe
fff8
0002
fffd
fff8
fff5
0004
0006
ffff
fffb
0005
0004
ffff
0008
fffa
ffff
0007
fffb
fffe
fffd
fffd
0008
0005
fff8
fffb
0000
fffe
fffb
fff7
0006
0004
0002
fffe
fff7
0000
0003
fffe
0007
0002
0000
0003
0004
fffa
0002
fff8
ffff
fffe
0006
fff8
0003
fff8
0003
0002
fffd
0002
0008
0005
fff8
fffe
0008
0001
0001
0000
fffd
fffe
0000
0006
fffe
fffe
0001
fffd
0007
0006
0000
fffb
0002
0007
0003
0003
fffc
fff7
fffd
0000
0007
0001
fffd
fffb
fffe
fffb
fffc
0001
0006
0007
0003
fffa
0008
0008
fffe
0000
0008
fffd
0004
0001
0005
0003
0009
0007
fffa
0005
fffe
fffb
0000
fffc
fff4
fff2
fff8
fffe
0001
0002
0000
0007
fff8
fffa
0003
fff8
0008
0001
fffd
0008
0004
0007
0006
ffff
0008
0000
0000
0002
fff7
fff4
ffff
ffea
ffed
fff2
ffe6
ffec
ffee
fff9
fff4
0000
fff3
ffff
0001
fffc
fffd
fffb
0002
0003
fffd
0007
ffff
ffff
0007
0001
0000
0000
ffef
ffee
ffe7
ffca
ffc9
ffcf
ffc5
ffbc
ffc1
ffb9
ffd1
ffdb
ffe0
ffe7
fff3
0000
fff9
0001
fff7
0002
0005
0002
0000
0000
0007
0002
0007
0002
0012
000f
000e
ffe6
ffd3
ffcf
ffc7
ffbc
ffa8
ffa7
ff97
ff9e
ff9e
ffa4
ffca
ffd6
fff1
fffc
0005
fffe
0008
0004
0007
0002
0008
0001
0012
0031
002d
0039
002b
0038
003d
0026
ffed
ffec
fffc
0000
0006
ffe7
ffdd
ffe3
fff1
ffe4
ffde
ffee
fff3
fff7
fffe
fffa
0005
0007
0025
001a
0021
003e
0048
0025
0034
0046
003f
0030
0022
fff5
0015
002a
004c
0049
002e
002c
0018
0006
fff8
ffe7
ffeb
fffe
0008
0000
0007
001a
0034
0030
0040
0046
006c
0046
003d
0017
0045
0056
001a
003c
004e
0046
0036
0056
0026
002d
0004
001f
0013
ffe3
fff2
fffa
fff8
0007
0008
0013
0044
004c
003b
0022
0019
001b
0018
fffb
0028
0056
0029
006b
0064
005e
0069
004b
0043
0023
0035
002f
fff6
ffe2
fff9
fffb
0001
0003
000c
002c
0045
005a
0041
0016
000e
ffed
000a
0001
ffea
ffe2
002f
0057
0076
0090
004a
0054
0056
0066
005a
0030
ffe6
ffd7
fff7
fffc
fffd
0006
000c
003f
0058
0063
0029
000a
001d
fffa
001a
0031
002a
fffd
0017
005c
0073
006d
005a
007b
0032
0050
004b
002f
ffe9
ffe5
fffd
fffc
fffd
0004
0017
003a
0065
005e
001c
0006
0036
0054
fffe
fff5
fff0
ff6d
ff4a
ffe4
0053
0076
0064
004b
fffe
0016
0017
0018
ffdf
ffea
ffff
000b
0009
0000
000f
001d
0045
0038
0017
0020
001a
fff5
ffe1
fff7
ffa4
ff0f
ff14
ffce
0018
0039
0018
000e
fff6
0031
0015
0005
0000
0003
000b
0007
fffd
0007
0006
001c
002b
001e
001c
fffe
ffeb
ffe2
ffc9
ffcb
ff7f
ff20
ff6c
ffd9
ffe6
000f
003d
0068
0085
0056
0024
0037
002d
000b
fff6
fffa
0003
0005
fffc
000a
0009
0000
ffec
fff2
ffd7
ffb3
ffb6
ffbd
ff76
ff6a
ffad
ffba
0000
ffe6
0082
007c
0058
0064
0056
0054
0028
fff5
fff6
0004
ffff
0000
0002
fff8
0000
0003
ffdf
fff6
000a
ffe3
ffc7
ff90
ff57
ffb5
ffd8
ffb5
0015
0015
0050
002c
0038
0038
0034
000c
fffb
ffe5
fff7
fff8
fff9
0000
fffc
fffa
fffa
000e
fff8
ffd8
ffcd
ffcf
ffca
ff83
ffb5
0000
000e
0017
0017
fffa
fffa
0015
0009
0016
0002
fffc
ffe9
0008
fffc
0003
fff8
fffd
fffe
0000
fff0
ffef
ffd8
ffa3
ffa7
ffad
ffa4
ffa8
ffcc
ffe1
0004
0008
fff0
ffce
ffe8
ffe7
fff4
fff7
ffdb
ffc8
ffc6
ffe7
ffff
ffff
0006
0000
fffb
0006
ffeb
ffe8
ffbf
ffa7
ff98
ffa7
ffaf
ff9f
ffc0
ffeb
ffeb
0015
ffdc
ffbd
ffb9
ffad
ffd1
ffb3
ff99
ffa4
ffbe
fff3
fffb
fff9
0000
0000
0001
0002
fff1
ffd7
ffb9
ff96
ff9c
ffb9
ffb2
ffbc
ffc0
fff3
ffff
000a
ffd9
ffb3
ffa7
ff82
ffa4
ff7c
ff7e
ff95
ffd3
fff7
fff5
0008
0008
fffc
fffc
fffe
ffe3
ffda
ffbf
ffa6
ff9e
ffba
ffbd
ffc4
ffce
ffee
ffdd
ffd3
ffd7
ffe2
ffad
ff9e
ff8f
ff93
ff97
ff9b
ffc0
fff8
fffa
0002
0000
0004
0000
fff9
ffee
ffdc
fff0
ffef
0006
ffec
ffd1
ffe5
ffc3
ffea
ffbd
ffe2
fff8
fff2
ffbc
ffb0
ffad
ff95
ff96
ffaf
ffcd
ffef
0000
0000
fffc
0006
fffa
fff1
fff2
0000
0017
0031
0045
ffe5
ffd9
ffe1
ffcb
ffbf
ffc2
ffe7
0006
ffe4
ffdd
ffc5
ffaf
ff9e
ffae
ffb6
ffd5
fff6
0000
0006
0000
0000
ffff
fff5
0003
001e
004d
0056
0042
002b
0012
0011
0015
0004
001b
000f
000e
fff8
0000
ffdb
ffd7
ffc9
ffd4
ffcb
ffd4
ffeb
0000
0008
fff8
fffc
fffd
fff9
000c
0011
0015
0012
002c
0046
0051
0043
0061
0052
003c
003e
003b
002e
0035
0021
000d
ffe7
ffee
fff0
fff0
fffa
fffb
fffd
fff8
0007
0003
fff7
fff7
fff5
fff6
fff4
fffe
0018
001f
0021
001b
000c
0040
0045
0056
0040
0041
003d
002a
0001
fffe
000d
fff6
fffd
0004
fffe
fffc
fff7
0006
0000
0004
0001
fffa
fffd
0006
fffe
fffe
000e
0001
000b
0017
001d
0014
000c
0012
001c
000d
000a
0008
0006
0000
fffc
0004
0007
0000
fffb
0006
0007
0006
0000
0002
0000
fffd
fff7
ffff
0003
0005
0002
0004
0005
ffff
0005
0000
fffd
fffd
fffb
fff9
0002
0008
0001
0001
fffd
fffd
fffe
0003
0001
fffd
0001
ffff
0000
0006
fffd
0008
fffb
0008
0003
0003
fffe
fffe
fff9
fff7
0006
0008
0002
fffd
0001
0000
fff9
fff9
0003
fffe
fffe
fffb
0004
fffc
fffe
0004
0008
0007
0002
ffff
0002
0001
fffd
fff8
fff7
fff5
fff9
fff9
fff6
fff5
fff6
fffc
ffff
fffc
fff8
fffa
0003
0000
ffff
0001
ffff
fffb
fffc
fffc
fff7
fff4
fff8
fffc
ffff
ffef
ffef
ffef
ffdb
ffe4
ffe7
ffee
0002
fff0
ffee
0002
0001
0012
0006
fffd
0007
fffb
0007
fffd
0002
0006
0003
fffd
fff6
fff7
000b
0011
0013
0021
003e
002c
004d
004b
0041
0019
001a
0007
001b
0004
fffe
ffee
0004
0007
0004
fffd
0006
fffc
0001
fff7
fff9
ffec
ffe9
ffff
fff6
000f
fff0
0029
0041
0023
002f
0016
002b
0045
ffef
0022
002a
0012
ffeb
ffe2
0002
000e
0001
fff9
0005
0008
fffc
fffc
fff1
ffea
ffe9
ffe9
0006
0006
ffec
0006
0038
0011
000f
004a
001a
001f
ffea
0033
001b
fffd
fff9
0028
001a
001e
0002
fffd
fff9
0000
0007
0001
fff0
fff6
ffef
0009
002e
0000
0010
ffe0
ffe9
fff8
ffc2
0028
000a
ffe2
0010
0000
fffd
001c
000a
004c
0045
0015
0001
0007
0006
fffc
0000
0000
fff7
000b
0029
0032
0010
0034
0015
0000
0027
0030
ffda
fff2
002a
ffef
001e
001f
0009
001f
001e
005b
006f
0026
001c
0008
fffd
0004
ffff
fffa
0006
0019
0032
0026
002b
0035
001a
001c
0001
0009
ffd0
ff93
ffe4
000d
fff3
001d
0015
0027
002a
005f
002d
0009
0011
0000
0007
fff8
fff8
fff3
001e
0017
002e
0034
002b
0042
0057
0029
0033
000a
0007
ffb4
ffbc
ffd7
001a
003c
001d
0026
0037
0048
0001
ffe9
ffff
fffe
fffa
0004
0000
fffe
001d
0035
0037
005d
0051
0049
0033
0025
0038
0055
0086
0004
ffcf
ffd0
ffe3
fffa
000b
000d
004b
005f
003e
0011
0011
fffe
fffe
0007
0002
0009
0010
0045
0020
0031
0008
002e
ffe6
fff9
001a
0073
0048
0015
0000
0004
ffeb
0024
0033
005d
005c
007c
0065
0014
0003
0004
0008
ffff
0005
0003
fff7
000f
fffc
0000
ffec
0003
ffdb
0012
003e
006e
0005
004c
0022
ffcc
0000
000d
0031
fffd
001e
0023
001e
0008
fff5
0008
0000
0001
0007
0002
ffec
ffe2
ffe6
ffb0
ffba
ffc9
0000
004a
0039
0062
003a
0024
fffd
ffff
ffeb
fffa
ffc8
ffc7
ffb5
ffca
ffdd
fffc
fffc
0000
fffe
0006
0004
0000
ffe2
ffc1
ffc2
ffc6
ffc8
fff8
ffeb
ffee
0034
0063
005c
0017
ffe7
ffe3
ffef
ffda
ffa9
ffb0
ffd0
ffc6
ffcf
fff7
0000
fffe
0006
fffe
0001
0000
ffda
ffbe
ffd6
fff1
000f
000a
0008
0012
0058
0037
001b
000f
0025
fff3
ffc5
ffa0
ffb3
ffaf
ffb2
ffed
ffdc
ffe0
fff6
0005
0002
fffe
fff9
fff2
ffe2
ffcb
ffda
001f
002d
0034
001c
004a
005e
0031
0010
ffe5
0025
ffe8
ffb0
ffd6
ffe6
ffe0
ffdb
fffd
fff5
ffd1
fffc
fffc
0008
0003
0002
ffef
ffce
ffec
000c
000a
0017
0049
0044
0047
0033
0012
ffdc
fff9
ffe0
ffd0
fff2
fff4
0005
ffda
000d
001c
ffec
ffe2
fff8
0001
0003
fffb
0000
ffeb
ffcb
000c
0017
fffc
0007
0032
002d
ffe7
000c
ffe0
ffd7
fff5
fffb
0008
0011
0008
0007
fffd
002f
002b
fff3
ffec
0003
0000
fff9
0000
fffe
ffe5
ffcb
fffc
0022
0044
0010
fffa
0023
ffda
0006
0008
ffd8
0012
ffd3
fff9
fff9
0001
001b
002f
003c
001a
ffe6
fff7
fff8
0008
0004
0004
0000
ffe8
ffe2
fff8
0030
003a
0001
0019
ffec
fff0
ffe3
001c
fffa
fff9
ffe4
ffff
fffb
fff2
001e
0011
001a
fff8
ffdd
ffed
0005
ffff
fffa
0000
fffa
fff5
ffec
ffd5
0007
0023
fff8
ffe1
0001
0025
0024
0027
002d
0012
fff7
fffd
0000
ffeb
ffef
0018
0007
ffff
ffec
0002
0006
0007
0000
ffff
fff8
0000
ffdf
ffa8
ffb7
ffce
0029
000b
fff6
0014
003b
005e
002f
003b
0043
0016
0026
0028
0020
0015
fff9
0003
fffd
fffc
fffd
ffff
fff9
0007
fff9
fff1
ffdd
ffb7
ffab
ffbe
000e
000b
0013
0041
0036
0028
0030
0045
005e
0004
003d
005a
0022
fff1
fff1
fff0
fff4
fffe
0004
fffd
0006
fff9
fffd
0005
ffe7
ffd4
ffdc
ffd2
ffca
ffce
fff7
fffd
ffef
fff2
0017
0039
0031
0030
0011
0010
0007
fffc
fffd
0002
fffb
fff9
0004
0005
fffe
0000
0000
fff8
fffa
fff7
fffa
fff8
fffd
fff7
ffe4
ffe9
ffe4
ffe6
ffda
ffe5
fff0
fff4
fffd
fff8
fffc
0001
fff6
0000
0003
fffe
fffa
fffe
fffc
fffd
fffa
fffe
0005
fffc
0003
fff9
fffb
0000
0006
fff7
0002
0000
fff7
fff9
0003
fffb
0005
fffa
0006
fffb
0003
0002
fff9
fffc
fffe
0000
0004
fffd
0001
fffc
fffc
0005
fffe
fff8
0000
ffff
0002
fffc
0000
fffc
fffb
0002
0002
0001
0008
0000
0000
ffff
fff8
0003
0007
0000
fff9
0008
0002
0006
0003
0001
fffe
0001
0002
0000
fffb
fffc
fff8
fffc
fffd
0006
fffb
fff5
0000
0005
fff9
0000
0002
0005
ffff
0004
0007
0005
0004
0005
fff8
0001
0007
fff9
fff8
fff9
0002
0008
ffff
fffc
ffff
fff5
fffc
fff4
fff4
fff3
fff5
0000
ffff
0003
fff6
fff8
0005
0007
0007
fff8
0004
fff7
fffe
0000
0004
fffe
fff9
fff7
fffc
0006
0001
0000
fff1
ffeb
fff6
ffec
ffdc
ffdc
ffe6
fff3
ffef
fff0
fff9
0001
0000
ffff
0000
0008
fff9
0004
fffa
0000
fff8
0005
fffb
ffff
fff9
fffc
fff1
ffe5
ffde
ffdc
ffc9
ffbd
ffb7
ffa8
ff9c
ffb5
ffc3
ffc7
ffd8
ffe4
ffe7
fff3
0003
fffe
0000
0003
fffc
0006
fffe
0000
fff8
fffd
ffe9
ffea
ffda
ffcb
ffdd
001f
0021
0021
ffea
ffea
ffad
ffbb
ffba
ffcc
ffc1
ffc5
ffc1
ffd1
ffeb
fff2
0001
fffa
0007
0003
fffb
fffa
ffea
ffdd
ffc8
ffc0
ffcc
fff5
fffb
0027
0026
004a
0051
0037
004b
0045
003e
0008
0002
ffd7
ffbc
ffbd
ffde
fff5
fffa
ffff
fffa
0000
0004
fff7
ffe1
ffbb
ffbf
ffb4
ffe5
0002
000c
0017
0046
0076
0084
0086
0083
004b
002a
001f
001a
000a
ffd1
ffc6
ffcb
ffde
fff0
0002
0007
fff5
fff7
ffd4
ffce
ffc4
ffe1
ffcd
001f
fff8
fff5
ffeb
ffce
0023
0052
0034
002a
0007
0019
fffd
fff5
0020
fff7
ffcb
ffd4
ffe6
fffb
0002
0005
fff6
ffed
ffdb
ffb8
ffe6
0023
ffff
0008
0003
0029
000e
0003
000c
0034
0046
0001
fffe
001f
0000
0003
ffdc
ffdf
ffce
ffd4
ffda
ffef
0004
fffe
0001
fff4
ffd0
ffd2
0004
0035
0006
002b
001f
0026
002e
0024
ffcf
0003
ffea
0003
fffc
000f
0002
0004
fff7
fff8
ffe1
ffc3
ffe7
fff1
0004
0005
ffff
ffe3
ffd3
fff2
0036
0042
0023
006c
0031
003e
0058
001b
fffb
000c
0032
0041
0058
003c
002b
007d
0053
0036
fffa
ffd4
fff2
fffe
fff8
fffa
fff4
ffeb
ffe2
0034
0057
005d
0030
003b
004b
0042
0026
ffc7
000a
003b
0050
0048
005c
0051
0063
005b
006b
0048
002c
ffcf
fff2
fffb
0002
0002
ffff
ffe9
ffea
0061
0060
0026
003a
0035
000d
001d
fff4
ffc4
001c
003d
0042
0068
004d
0043
006c
0054
005c
001f
ffd3
ffb9
ffd9
fff8
fffe
fffd
0005
fff9
0008
0043
001d
0036
0023
000a
ffff
0000
fffb
ffe6
0012
000a
0039
0056
004e
0030
001c
0037
0028
fff2
ffa0
ffb0
ffee
fffa
0004
0008
0007
0000
fffa
001b
0014
0008
0009
0013
ffe2
0006
0007
ffee
ffdf
ffd1
0026
0055
0059
0021
0010
000d
ffe8
ffcf
ffa2
ffb5
fff3
fffe
0000
fffe
0000
0001
fff4
000f
0004
ffe9
fffa
001a
ffe4
0007
000f
ffe5
ffcd
ffe9
0005
003f
0031
0017
ffdb
ffd2
ffbe
ffce
ffa1
ffb2
ffe6
0000
fff9
0001
0006
fff0
fff3
ffd5
ffd4
ffda
0007
0011
ffff
0004
0005
0003
0000
fff5
0042
000c
0014
fffb
ffdc
ffdd
ffc4
ffa9
ffaa
ffb6
ffeb
0005
fffa
fffd
0000
ffff
ffdf
ffd1
ffba
ffe6
ffe0
ffdc
fff8
002d
0019
ffc8
ffd2
002a
0025
ffe9
fff2
ffd6
fff5
0001
ffd3
ffb1
ffa4
ffc6
fff4
fff9
fff9
fffd
0006
ffff
ffe2
ffcd
ffc7
ffd9
ffe7
ffd1
ffaf
ffc7
ffb5
ffc5
ffd5
ffd2
ffcb
ffe1
ffc9
ffda
fff8
fff8
ffb9
ffbd
ffc5
ffe7
fff7
0005
0008
0007
0001
fffd
fff6
ffdf
ffe6
ffd3
ffbc
ffb6
ff8f
ff7c
ff6c
ff7a
ffc8
ffbc
ffc1
ffe5
ffd7
ffc8
fff2
ffd3
ffc0
ffd2
ffe7
000b
0000
0003
0000
fffc
fffc
fff5
fff4
ffe9
fff4
ffe3
ffca
ffc5
ffd4
ffc8
ffa4
ffad
ffbd
ffb5
ffc1
ffd4
ffb1
ffba
ffc5
ffdb
ffdb
ffe5
fff5
0012
0001
0000
fffd
0004
fffd
fffb
0000
ffe5
ffd6
ffc8
ffc8
ffed
ffe7
ffff
fffb
0000
ffe0
fff5
ffc0
ffd0
ffc5
ffac
ff9a
ffe1
ffe7
0013
001c
0017
fffd
0000
fffe
0007
fffb
0003
fff8
fff0
ffd7
ffcf
ffd9
000a
ffd2
ffee
ffe6
ffe8
ffde
fffc
ffce
ffdc
ffdc
ffcd
ffe8
0003
0031
0044
0024
0010
fff9
fffd
fffe
fff9
0003
0006
fff3
0000
fffe
0000
0025
001f
ffe3
000c
ffe9
ffd0
ffbd
ffb2
ffef
fff5
0011
000e
0015
0056
004a
0041
0026
fff5
fffe
fff7
0005
0001
0000
fffc
fffc
0004
002e
002c
0039
0044
0027
003d
0021
0032
0028
0038
0022
0032
003c
0055
0058
0078
0057
001c
000a
0000
0000
fff5
fff8
ffff
0007
0003
0008
0007
001b
0028
003b
0040
0057
005a
0059
006f
006e
0091
0058
004a
0048
0042
0033
002e
001a
0006
fffc
fffa
0006
0007
fffa
0001
fffc
0008
0005
0003
fff9
fffd
0003
fffc
fffd
0004
fff9
0003
fff2
0000
fffa
fff4
ffeb
fff2
0000
0000
0009
0001
ffff
0005
fff8
fffb
0005
